TRT-7103-EntropyCalibration2
input_tensor:0: 3caa54fc
(Unnamed Layer* 0) [Constant]_output: 3f795e5c
(Unnamed Layer* 196) [Constant]_output: 3a577a50
(Unnamed Layer* 1) [Shuffle]_output: 3f795e5c
(Unnamed Layer* 4) [Shuffle]_output: 4000890a
(Unnamed Layer* 197) [Shuffle]_output: 3a577a50
Sub:0: 3f7da388
truediv:0: 3b7ea229
resnet50_v1.5/input_reshape/transpose:0: 3b7ea229
resnet50_v1.5/conv2d/Pad:0: 3b7ea229
resnet50_v1.5/conv2d/conv2d/Conv2D:0: 3c83aa6f
resnet50_v1.5/conv2d/BatchNorm/FusedBatchNorm:0: 3d88b3fa
resnet50_v1.5/conv2d/relu:0: 3d9628dc
resnet50_v1.5/max_pooling2d/MaxPool:0: 3d9628dc
resnet50_v1.5/btlnck_block_1_1/shortcut/conv2d/conv2d/Conv2D:0: 3ddf33b6
resnet50_v1.5/btlnck_block_1_1/bottleneck_1/conv2d/Conv2D:0: 3d95243f
resnet50_v1.5/btlnck_block_1_1/shortcut/conv2d/BatchNorm/FusedBatchNorm:0: 3d5568d9
resnet50_v1.5/btlnck_block_1_1/bottleneck_1/BatchNorm/FusedBatchNorm:0: 3d613fe2
resnet50_v1.5/btlnck_block_1_1/bottleneck_1/relu:0: 3d307dbe
resnet50_v1.5/btlnck_block_1_1/bottleneck_2/conv2d/Conv2D:0: 3de391e7
resnet50_v1.5/btlnck_block_1_1/bottleneck_2/BatchNorm/FusedBatchNorm:0: 3d960e17
resnet50_v1.5/btlnck_block_1_1/bottleneck_2/relu:0: 3d965bf8
resnet50_v1.5/btlnck_block_1_1/bottleneck_3/conv2d/Conv2D:0: 3d805513
resnet50_v1.5/btlnck_block_1_1/bottleneck_3/BatchNorm/FusedBatchNorm:0: 3d58ae05
resnet50_v1.5/btlnck_block_1_1/add:0: 3d6323f7
resnet50_v1.5/btlnck_block_1_1/relu:0: 3d102ad9
resnet50_v1.5/btlnck_block_1_2/bottleneck_1/conv2d/Conv2D:0: 3d725543
resnet50_v1.5/btlnck_block_1_2/bottleneck_1/BatchNorm/FusedBatchNorm:0: 3d163c2f
resnet50_v1.5/btlnck_block_1_2/bottleneck_1/relu:0: 3d163c2f
resnet50_v1.5/btlnck_block_1_2/bottleneck_2/conv2d/Conv2D:0: 3d89e46a
resnet50_v1.5/btlnck_block_1_2/bottleneck_2/BatchNorm/FusedBatchNorm:0: 3d445714
resnet50_v1.5/btlnck_block_1_2/bottleneck_2/relu:0: 3d445714
resnet50_v1.5/btlnck_block_1_2/bottleneck_3/conv2d/Conv2D:0: 3cdd9c45
resnet50_v1.5/btlnck_block_1_2/bottleneck_3/BatchNorm/FusedBatchNorm:0: 3cdff10f
resnet50_v1.5/btlnck_block_1_2/add:0: 3d389cc6
resnet50_v1.5/btlnck_block_1_2/relu:0: 3d389cc6
resnet50_v1.5/btlnck_block_1_3/bottleneck_1/conv2d/Conv2D:0: 3d5dd9c3
resnet50_v1.5/btlnck_block_1_3/bottleneck_1/BatchNorm/FusedBatchNorm:0: 3d0ccf28
resnet50_v1.5/btlnck_block_1_3/bottleneck_1/relu:0: 3cdb1306
resnet50_v1.5/btlnck_block_1_3/bottleneck_2/conv2d/Conv2D:0: 3d3c318c
resnet50_v1.5/btlnck_block_1_3/bottleneck_2/BatchNorm/FusedBatchNorm:0: 3d24bbdd
resnet50_v1.5/btlnck_block_1_3/bottleneck_2/relu:0: 3d06d2eb
resnet50_v1.5/btlnck_block_1_3/bottleneck_3/conv2d/Conv2D:0: 3c9fad51
resnet50_v1.5/btlnck_block_1_3/bottleneck_3/BatchNorm/FusedBatchNorm:0: 3cdedf71
resnet50_v1.5/btlnck_block_1_3/add:0: 3d3bacb7
resnet50_v1.5/btlnck_block_1_3/relu:0: 3d3bacb7
resnet50_v1.5/btlnck_block_2_1/shortcut/conv2d/conv2d/Conv2D:0: 3d91035b
resnet50_v1.5/btlnck_block_2_1/bottleneck_1/conv2d/Conv2D:0: 3dba8e8e
resnet50_v1.5/btlnck_block_2_1/shortcut/conv2d/BatchNorm/FusedBatchNorm:0: 3d590de2
resnet50_v1.5/btlnck_block_2_1/bottleneck_1/BatchNorm/FusedBatchNorm:0: 3d461f97
resnet50_v1.5/btlnck_block_2_1/bottleneck_1/relu:0: 3d4282b7
resnet50_v1.5/btlnck_block_2_1/bottleneck_2/Pad:0: 3d4282b7
resnet50_v1.5/btlnck_block_2_1/bottleneck_2/conv2d/Conv2D:0: 3d8998c2
resnet50_v1.5/btlnck_block_2_1/bottleneck_2/BatchNorm/FusedBatchNorm:0: 3d36b364
resnet50_v1.5/btlnck_block_2_1/bottleneck_2/relu:0: 3d111314
resnet50_v1.5/btlnck_block_2_1/bottleneck_3/conv2d/Conv2D:0: 3d199d51
resnet50_v1.5/btlnck_block_2_1/bottleneck_3/BatchNorm/FusedBatchNorm:0: 3d3f7ec5
resnet50_v1.5/btlnck_block_2_1/add:0: 3d92a12b
resnet50_v1.5/btlnck_block_2_1/relu:0: 3d9a129c
resnet50_v1.5/btlnck_block_2_2/bottleneck_1/conv2d/Conv2D:0: 3dd4fb29
resnet50_v1.5/btlnck_block_2_2/bottleneck_1/BatchNorm/FusedBatchNorm:0: 3d4c4241
resnet50_v1.5/btlnck_block_2_2/bottleneck_1/relu:0: 3d5398f2
resnet50_v1.5/btlnck_block_2_2/bottleneck_2/conv2d/Conv2D:0: 3df0ef1f
resnet50_v1.5/btlnck_block_2_2/bottleneck_2/BatchNorm/FusedBatchNorm:0: 3d816387
resnet50_v1.5/btlnck_block_2_2/bottleneck_2/relu:0: 3d43ef35
resnet50_v1.5/btlnck_block_2_2/bottleneck_3/conv2d/Conv2D:0: 3cbe72e3
resnet50_v1.5/btlnck_block_2_2/bottleneck_3/BatchNorm/FusedBatchNorm:0: 3d347e30
resnet50_v1.5/btlnck_block_2_2/add:0: 3d8431d4
resnet50_v1.5/btlnck_block_2_2/relu:0: 3da3a170
resnet50_v1.5/btlnck_block_2_3/bottleneck_1/conv2d/Conv2D:0: 3d96b58e
resnet50_v1.5/btlnck_block_2_3/bottleneck_1/BatchNorm/FusedBatchNorm:0: 3d72c2ad
resnet50_v1.5/btlnck_block_2_3/bottleneck_1/relu:0: 3d1a2329
resnet50_v1.5/btlnck_block_2_3/bottleneck_2/conv2d/Conv2D:0: 3d89104b
resnet50_v1.5/btlnck_block_2_3/bottleneck_2/BatchNorm/FusedBatchNorm:0: 3d2a3dfc
resnet50_v1.5/btlnck_block_2_3/bottleneck_2/relu:0: 3d0ddb4c
resnet50_v1.5/btlnck_block_2_3/bottleneck_3/conv2d/Conv2D:0: 3c573695
resnet50_v1.5/btlnck_block_2_3/bottleneck_3/BatchNorm/FusedBatchNorm:0: 3d04eb2e
resnet50_v1.5/btlnck_block_2_3/add:0: 3d837dd7
resnet50_v1.5/btlnck_block_2_3/relu:0: 3d837dd7
resnet50_v1.5/btlnck_block_2_4/bottleneck_1/conv2d/Conv2D:0: 3dd7d3b0
resnet50_v1.5/btlnck_block_2_4/bottleneck_1/BatchNorm/FusedBatchNorm:0: 3d4126d2
resnet50_v1.5/btlnck_block_2_4/bottleneck_1/relu:0: 3d610bcb
resnet50_v1.5/btlnck_block_2_4/bottleneck_2/conv2d/Conv2D:0: 3d83b315
resnet50_v1.5/btlnck_block_2_4/bottleneck_2/BatchNorm/FusedBatchNorm:0: 3d58e5ba
resnet50_v1.5/btlnck_block_2_4/bottleneck_2/relu:0: 3d4dbe8f
resnet50_v1.5/btlnck_block_2_4/bottleneck_3/conv2d/Conv2D:0: 3c805a19
resnet50_v1.5/btlnck_block_2_4/bottleneck_3/BatchNorm/FusedBatchNorm:0: 3d5d051e
resnet50_v1.5/btlnck_block_2_4/add:0: 3d8dca76
resnet50_v1.5/btlnck_block_2_4/relu:0: 3d9bf52e
resnet50_v1.5/btlnck_block_3_2/shortcut/conv2d/conv2d/Conv2D:0: 3d67efaf
resnet50_v1.5/btlnck_block_3_2/bottleneck_1/conv2d/Conv2D:0: 3deba47c
resnet50_v1.5/btlnck_block_3_2/shortcut/conv2d/BatchNorm/FusedBatchNorm:0: 3d7d4f8c
resnet50_v1.5/btlnck_block_3_2/bottleneck_1/BatchNorm/FusedBatchNorm:0: 3d74550b
resnet50_v1.5/btlnck_block_3_2/bottleneck_1/relu:0: 3d6517ad
resnet50_v1.5/btlnck_block_3_2/bottleneck_2/Pad:0: 3d6517ad
resnet50_v1.5/btlnck_block_3_2/bottleneck_2/conv2d/Conv2D:0: 3d910c19
resnet50_v1.5/btlnck_block_3_2/bottleneck_2/BatchNorm/FusedBatchNorm:0: 3d53e0bf
resnet50_v1.5/btlnck_block_3_2/bottleneck_2/relu:0: 3d3908b9
resnet50_v1.5/btlnck_block_3_2/bottleneck_3/conv2d/Conv2D:0: 3d30bcc8
resnet50_v1.5/btlnck_block_3_2/bottleneck_3/BatchNorm/FusedBatchNorm:0: 3d6d1964
resnet50_v1.5/btlnck_block_3_2/add:0: 3dc8839c
resnet50_v1.5/btlnck_block_3_2/relu:0: 3dc7fa45
resnet50_v1.5/btlnck_block_3_3/bottleneck_1/conv2d/Conv2D:0: 3ddd4dd8
resnet50_v1.5/btlnck_block_3_3/bottleneck_1/BatchNorm/FusedBatchNorm:0: 3d8a8d28
resnet50_v1.5/btlnck_block_3_3/bottleneck_1/relu:0: 3d905851
resnet50_v1.5/btlnck_block_3_3/bottleneck_2/conv2d/Conv2D:0: 3decbf6f
resnet50_v1.5/btlnck_block_3_3/bottleneck_2/BatchNorm/FusedBatchNorm:0: 3dae98a1
resnet50_v1.5/btlnck_block_3_3/bottleneck_2/relu:0: 3dadcf2e
resnet50_v1.5/btlnck_block_3_3/bottleneck_3/conv2d/Conv2D:0: 3ce1e87b
resnet50_v1.5/btlnck_block_3_3/bottleneck_3/BatchNorm/FusedBatchNorm:0: 3d7e2c61
resnet50_v1.5/btlnck_block_3_3/add:0: 3da061d1
resnet50_v1.5/btlnck_block_3_3/relu:0: 3da30905
resnet50_v1.5/btlnck_block_3_4/bottleneck_1/conv2d/Conv2D:0: 3da5ae15
resnet50_v1.5/btlnck_block_3_4/bottleneck_1/BatchNorm/FusedBatchNorm:0: 3d68029d
resnet50_v1.5/btlnck_block_3_4/bottleneck_1/relu:0: 3d8df727
resnet50_v1.5/btlnck_block_3_4/bottleneck_2/conv2d/Conv2D:0: 3d99eefa
resnet50_v1.5/btlnck_block_3_4/bottleneck_2/BatchNorm/FusedBatchNorm:0: 3d387c5a
resnet50_v1.5/btlnck_block_3_4/bottleneck_2/relu:0: 3d296244
resnet50_v1.5/btlnck_block_3_4/bottleneck_3/conv2d/Conv2D:0: 3c6f4830
resnet50_v1.5/btlnck_block_3_4/bottleneck_3/BatchNorm/FusedBatchNorm:0: 3d27f278
resnet50_v1.5/btlnck_block_3_4/add:0: 3da1f75b
resnet50_v1.5/btlnck_block_3_4/relu:0: 3da2bcf5
resnet50_v1.5/btlnck_block_3_5/bottleneck_1/conv2d/Conv2D:0: 3d9d4427
resnet50_v1.5/btlnck_block_3_5/bottleneck_1/BatchNorm/FusedBatchNorm:0: 3d892274
resnet50_v1.5/btlnck_block_3_5/bottleneck_1/relu:0: 3d892274
resnet50_v1.5/btlnck_block_3_5/bottleneck_2/conv2d/Conv2D:0: 3d671f72
resnet50_v1.5/btlnck_block_3_5/bottleneck_2/BatchNorm/FusedBatchNorm:0: 3d90aae5
resnet50_v1.5/btlnck_block_3_5/bottleneck_2/relu:0: 3d9e3787
resnet50_v1.5/btlnck_block_3_5/bottleneck_3/conv2d/Conv2D:0: 3ce4f11c
resnet50_v1.5/btlnck_block_3_5/bottleneck_3/BatchNorm/FusedBatchNorm:0: 3d85805f
resnet50_v1.5/btlnck_block_3_5/add:0: 3d9c4ea4
resnet50_v1.5/btlnck_block_3_5/relu:0: 3d9f7483
resnet50_v1.5/btlnck_block_3_6/bottleneck_1/conv2d/Conv2D:0: 3dd541ef
resnet50_v1.5/btlnck_block_3_6/bottleneck_1/BatchNorm/FusedBatchNorm:0: 3d38e536
resnet50_v1.5/btlnck_block_3_6/bottleneck_1/relu:0: 3d4a0fca
resnet50_v1.5/btlnck_block_3_6/bottleneck_2/conv2d/Conv2D:0: 3d5a61fb
resnet50_v1.5/btlnck_block_3_6/bottleneck_2/BatchNorm/FusedBatchNorm:0: 3d82df72
resnet50_v1.5/btlnck_block_3_6/bottleneck_2/relu:0: 3d910ec9
resnet50_v1.5/btlnck_block_3_6/bottleneck_3/conv2d/Conv2D:0: 3d0f620a
resnet50_v1.5/btlnck_block_3_6/bottleneck_3/BatchNorm/FusedBatchNorm:0: 3da041b2
resnet50_v1.5/btlnck_block_3_6/add:0: 3da8c54c
resnet50_v1.5/btlnck_block_3_6/relu:0: 3da3e7fc
resnet50_v1.5/btlnck_block_3_7/bottleneck_1/conv2d/Conv2D:0: 3dc38d0e
resnet50_v1.5/btlnck_block_3_7/bottleneck_1/BatchNorm/FusedBatchNorm:0: 3d3430cd
resnet50_v1.5/btlnck_block_3_7/bottleneck_1/relu:0: 3d3e7cbb
resnet50_v1.5/btlnck_block_3_7/bottleneck_2/conv2d/Conv2D:0: 3d3c9be0
resnet50_v1.5/btlnck_block_3_7/bottleneck_2/BatchNorm/FusedBatchNorm:0: 3d62987e
resnet50_v1.5/btlnck_block_3_7/bottleneck_2/relu:0: 3d6cefdd
resnet50_v1.5/btlnck_block_3_7/bottleneck_3/conv2d/Conv2D:0: 3cd716ab
resnet50_v1.5/btlnck_block_3_7/bottleneck_3/BatchNorm/FusedBatchNorm:0: 3d6f740d
resnet50_v1.5/btlnck_block_3_7/add:0: 3d92faf9
resnet50_v1.5/btlnck_block_3_7/relu:0: 3d92faf9
resnet50_v1.5/btlnck_block_4_1/shortcut/conv2d/conv2d/Conv2D:0: 3d8e8852
resnet50_v1.5/btlnck_block_4_1/bottleneck_1/conv2d/Conv2D:0: 3dbc8b75
resnet50_v1.5/btlnck_block_4_1/shortcut/conv2d/BatchNorm/FusedBatchNorm:0: 3d838313
resnet50_v1.5/btlnck_block_4_1/bottleneck_1/BatchNorm/FusedBatchNorm:0: 3d38efe8
resnet50_v1.5/btlnck_block_4_1/bottleneck_1/relu:0: 3d2d83a3
resnet50_v1.5/btlnck_block_4_1/bottleneck_2/Pad:0: 3d2d83a3
resnet50_v1.5/btlnck_block_4_1/bottleneck_2/conv2d/Conv2D:0: 3d2a5f90
resnet50_v1.5/btlnck_block_4_1/bottleneck_2/BatchNorm/FusedBatchNorm:0: 3d32c902
resnet50_v1.5/btlnck_block_4_1/bottleneck_2/relu:0: 3d1ca4fc
resnet50_v1.5/btlnck_block_4_1/bottleneck_3/conv2d/Conv2D:0: 3d05544d
resnet50_v1.5/btlnck_block_4_1/bottleneck_3/BatchNorm/FusedBatchNorm:0: 3d84c263
resnet50_v1.5/btlnck_block_4_1/add:0: 3dc6bdb4
resnet50_v1.5/btlnck_block_4_1/relu:0: 3dc80edf
resnet50_v1.5/btlnck_block_4_2/bottleneck_1/conv2d/Conv2D:0: 3dd222f7
resnet50_v1.5/btlnck_block_4_2/bottleneck_1/BatchNorm/FusedBatchNorm:0: 3d2cde28
resnet50_v1.5/btlnck_block_4_2/bottleneck_1/relu:0: 3d122203
resnet50_v1.5/btlnck_block_4_2/bottleneck_2/conv2d/Conv2D:0: 3d6fd1ab
resnet50_v1.5/btlnck_block_4_2/bottleneck_2/BatchNorm/FusedBatchNorm:0: 3d2d6453
resnet50_v1.5/btlnck_block_4_2/bottleneck_2/relu:0: 3cee4399
resnet50_v1.5/btlnck_block_4_2/bottleneck_3/conv2d/Conv2D:0: 3c697bd2
resnet50_v1.5/btlnck_block_4_2/bottleneck_3/BatchNorm/FusedBatchNorm:0: 3d5e6c0d
resnet50_v1.5/btlnck_block_4_2/add:0: 3dad0516
resnet50_v1.5/btlnck_block_4_2/relu:0: 3dc56cd0
resnet50_v1.5/btlnck_block_4_3/bottleneck_1/conv2d/Conv2D:0: 3dac2fe2
resnet50_v1.5/btlnck_block_4_3/bottleneck_1/BatchNorm/FusedBatchNorm:0: 3d5931b3
resnet50_v1.5/btlnck_block_4_3/bottleneck_1/relu:0: 3d18fd79
resnet50_v1.5/btlnck_block_4_3/bottleneck_2/conv2d/Conv2D:0: 3d953959
resnet50_v1.5/btlnck_block_4_3/bottleneck_2/BatchNorm/FusedBatchNorm:0: 3d78115d
resnet50_v1.5/btlnck_block_4_3/bottleneck_2/relu:0: 3d31da5c
resnet50_v1.5/btlnck_block_4_3/bottleneck_3/conv2d/Conv2D:0: 3cc6753d
resnet50_v1.5/btlnck_block_4_3/bottleneck_3/BatchNorm/FusedBatchNorm:0: 3dacebd5
resnet50_v1.5/btlnck_block_4_3/add:0: 3de11fa0
resnet50_v1.5/btlnck_block_4_3/relu:0: 3e01631c
resnet50_v1.5/output/spatial_mean:0: 3d04c387
(Unnamed Layer* 190) [Shuffle]_output: 3d04c387
(Unnamed Layer* 191) [Fully Connected]_output: 3d785274
resnet50_v1.5/output/dense/MatMul:0: 3d785274
resnet50_v1.5/output/dense/BiasAdd:0: 3d7af0d3
(Unnamed Layer* 208) [TopK]_output_1: 3dcc6951
(Unnamed Layer* 208) [TopK]_output_2: 3f60d52a
(Unnamed Layer* 204) [Shuffle]_output: 3d7af0d3
ArgMax_raw_output___3:0: 3f60d52a
(Unnamed Layer* 205) [Softmax]_output: 3a3e9878
resnet50_v1.5/output/softmax:0: 3a3e9878
ArgMax:0: 3f60d52a
